1000010001101011
1000010011011010
1000010010100111
1000010110100100
1000000101101100
0000101100011110
1000110101001110
1000111001110110
0000000010100101
0000010111011000
1001001100101001
0000010110100010
1000101111011100
1000111110011010
1000010001100110
0000100111101000
0000010000011101
1000010110110010
0000001011010010
0000100001011000
1000111000001010
1001011001110100
1000110001000000
1000111010000011
1000110010100101
1000000000101011
1000111011101110
1000111100111010
1000111001111110
1000001011001010
